#version: 0.2
Ġ t
Ġ a
h e
i n
r e
o n
Ġt he
e r
Ġ s
a t
Ġ w
Ġ o
e n
Ġ c
i t
i s
a n
o r
e s
Ġ b
e d
Ġ f
in g
Ġ p
o u
Ġa n
a l
a r
Ġt o
Ġ m
Ġo f
Ġ in
Ġ d
Ġ h
Ġan d
i c
a s
l e
Ġt h
i on
o m
l l
en t
Ġ n
Ġ l
s t
Ġ re
v e
Ġ e
r o
l y
Ġb e
Ġ g
Ġ T
c t
Ġ S
i d
o t
Ġ I
u t
e t
Ġ A
Ġ is
Ġ on
i m
a m
o w
a y
a d
s e
Ġth at
Ġ C
i g
Ġf or
a c
Ġ y
v er
u r
Ġ u
l d
Ġs t
Ġ M
' s
Ġ he
Ġ it
at ion
it h
i r
c e
Ġy ou
i l
Ġ B
Ġw h
o l
Ġ P
Ġw ith
Ġ 1
t er
c h
Ġa s
Ġw e
Ġ (
n d
i ll
Ġ D
i f
Ġ 2
a g
er s
k e
Ġ "
Ġ H
e m
Ġc on
Ġ W
Ġ R
he r
Ġw as
Ġ r
o d
Ġ F
u l
at e
Ġa t
r i
p p
o re
ĠT he
Ġs e
u s
Ġp ro
Ġh a
u m
Ġa re
Ġd e
a in
an d
Ġo r
ig h
es t
is t
a b
r om
Ġ N
t h
Ġc om
Ġ G
u n
o p
0 0
Ġ L
Ġn ot
es s
Ġe x
Ġ v
re s
Ġ E
e w
it y
an t
Ġb y
e l
o s
or t
o c
q u
Ġf rom
Ġha ve
Ġs u
i ve
ou ld
Ġs h
Ġth is
n t
r a
p e
igh t
ar t
m ent
Ġa l
u st
en d
- -
al l
Ġ O
ac k
Ġc h
Ġ le
i es
re d
ar d
â Ģ
ou t
Ġ J
Ġa b
e ar
i v
al ly
ou r
o st
g h
p t
Ġp l
as t
Ġc an
a k
om e
u d
T he
Ġh is
Ġd o
Ġg o
Ġh as
g e
' t
Ġ U
r ou
Ġs a
Ġ j
Ġb ut
Ġw or
Ġa ll
e ct
Ġ k
am e
Ġw ill
o k
Ġw he
Ġthe y
id e
0 1
f f
ic h
p l
t her
Ġt r
. .
Ġin t
i e
u re
ag e
Ġn e
i al
a p
in e
ic e
Ġm e
Ġo ut
an s
on e
on g
ion s
Ġwh o
Ġ K
Ġu p
Ġthe ir
Ġa d
Ġ 3
Ġu s
at ed
ou s
Ġm ore
u e
o g
ĠS t
in d
i ke
Ġs o
im e
p er
. "
b er
i z
a ct
Ġon e
Ġsa id
Ġ -
a re
Ġyou r
c c
ĠT h
Ġc l
e p
a ke
ab le
i p
Ġcon t
Ġwh ich
i a
Ġ im
Ġab out
Ġwe re
ver y
u b
Ġh ad
Ġ en
Ġcom p
, "
ĠI n
Ġu n
Ġa g
i re
ac e
a u
ar y
Ġw ould
as s
r y
Ġ âĢ
c l
o ok
e re
s o
Ġ V
ig n
i b
Ġof f
Ġt e
v en
Ġ Y
i le
o se
it e
or m
Ġ2 01
Ġre s
Ġm an
Ġp er
Ġo ther
or d
ul t
Ġbe en
Ġl ike
as e
an ce
k s
ay s
ow n
en ce
Ġd is
ct ion
Ġan y
Ġa pp
Ġs p
in t
res s
ation s
a il
Ġ 4
ic al
Ġthe m
Ġhe r
ou nt
ĠC h
Ġa r
Ġ if
Ġthe re
Ġp e
Ġy ear
a v
Ġm y
Ġs ome
Ġwhe n
ou gh
ac h
Ġth an
r u
on d
ic k
Ġo ver
ve l
Ġ qu
Ċ Ċ
Ġs c
re at
re e
ĠI t
ou nd
p ort
Ġal so
Ġp art
f ter
Ġk n
Ġbe c
Ġt ime
en s
Ġ 5
op le
Ġwh at
Ġn o
d u
m er
an g
Ġn ew
-- --
Ġg et
or y
it ion
ing s
Ġj ust
Ġint o
Ġ 0
ent s
o ve
t e
Ġpe ople
Ġp re
Ġit s
Ġre c
Ġt w
i an
ir st
ar k
or s
Ġwor k
ad e
o b
Ġs he
Ġo ur
w n
in k
l ic
Ġ1 9
ĠH e
is h
nd er
au se
Ġh im
on s
Ġ [
Ġ ro
f orm
i ld
at es
ver s
Ġon ly
o ll
Ġs pe
c k
e ll
am p
Ġa cc
Ġb l
i ous
ur n
f t
o od
Ġh ow
he d
Ġ '
Ġa fter
a w
Ġat t
o v
n e
Ġpl ay
er v
ic t
Ġc ould
it t
Ġa m
Ġf irst
Ġ 6
Ġa ct
Ġ $
e c
h ing
u al
u ll
Ġcom m
o y
o ld
c es
at er
Ġf e
Ġbe t
w e
if f
Ġtw o
oc k
Ġb ack
) .
id ent
Ġu nder
rou gh
se l
x t
Ġm ay
rou nd
Ġp o
p h
is s
Ġd es
Ġm ost
Ġd id
Ġad d
j ect
Ġin c
f ore
Ġp ol
on t
Ġag ain
cl ud
ter n
Ġkn ow
Ġne ed
Ġcon s
Ġc o
Ġ .
Ġw ant
Ġse e
Ġ 7
n ing
i ew
ĠTh is
c ed
Ġe ven
Ġin d
t y
ĠW e
at h
Ġthe se
Ġp r
Ġu se
Ġbec ause
Ġf l
n g
Ġn ow
ĠâĢ ĵ
c om
is e
Ġm ake
Ġthe n
ow er
Ġe very
ĠU n
Ġse c
os s
u ch
Ġe m
Ġ =
ĠR e
i ed
r it
Ġin v
le ct
Ġsu pp
at ing
Ġl ook
m an
pe ct
Ġ 8
ro w
Ġb u
Ġwhe re
if ic
Ġyear s
i ly
Ġd iff
Ġsh ould
Ġre m
T h
I n
Ġe v
d ay
' re
ri b
Ġre l
s s
Ġde f
Ġr ight
Ġs y
) ,
l es
00 0
he n
Ġth rough
ĠT r
_ _
Ġw ay
Ġd on
Ġ ,
Ġ1 0
as ed
Ġas s
ub lic
Ġre g
ĠA nd
i x
Ġ very
Ġin clud
ot her
Ġim p
ot h
Ġsu b
ĠâĢ Ķ
Ġbe ing
ar g
ĠW h
= =
ib le
Ġdo es
an ge
r am
Ġ 9
er t
p s
it ed
ation al
Ġb r
Ġd own
Ġman y
ak ing
Ġc all
ur ing
it ies
Ġp h
ic s
al s
Ġde c
at ive
en er
Ġbe fore
il ity
Ġwe ll
Ġm uch
ers on
Ġth ose
Ġsu ch
Ġ ke
Ġ end
ĠB ut
as on
t ing
Ġl ong
e f
Ġth ink
y s
Ġbe l
Ġs m
it s
a x
Ġo wn
Ġpro v
Ġs et
if e
ment s
b le
w ard
Ġsh ow
Ġp res
m s
om et
Ġo b
Ġs ay
ĠS h
t s
f ul
Ġe ff
Ġg u
Ġin st
u nd
re n
c ess
Ġ ent
ĠY ou
Ġgo od
Ġst art
in ce
Ġm ade
t t
st em
ol og
u p
Ġ |
um p
Ġhe l
ver n
ul ar
u ally
Ġa c
Ġm on
Ġl ast
Ġ2 00
1 0
Ġst ud
u res
ĠA r
sel f
ar s
mer ic
u es
c y
Ġm in
oll ow
Ġc ol
i o
Ġm od
Ġc ount
ĠC om
he s
Ġf in
a ir
i er
âĢ Ķ
re ad
an k
at ch
e ver
Ġst r
Ġpo int
or k
ĠN ew
Ġs ur
o ol
al k
em ent
Ġus ed
ra ct
we en
Ġs ame
ou n
ĠA l
c i
Ġdiff ere
Ġwh ile
---- ----
Ġg ame
ce pt
Ġs im
.. .
Ġin ter
e k
Ġre port
Ġpro du
Ġst ill
l ed
a h
Ġhe re
Ġwor ld
Ġth ough
Ġn um
ar ch
im es
al e
ĠS e
ĠI f
/ /
ĠL e
Ġre t
Ġre f
Ġtr ans
n er
ut ion
ter s
Ġt ake
ĠC l
Ġcon f
w ay
a ve
Ġgo ing
Ġs l
u g
ĠA meric
Ġspe c
Ġh and
Ġbet ween
ist s
ĠD e
o ot
I t
Ġe ar
Ġagain st
Ġh igh
g an
a z
at her
Ġex p
Ġo p
Ġin s
Ġg r
Ġhel p
Ġre qu
et s
in s
ĠP ro
is m
Ġf ound
l and
at a
us s
am es
Ġp erson
Ġg reat
p r
Ġs ign
ĠA n
' ve
Ġs omet
Ġs er
h ip
Ġr un
Ġ :
Ġt er
ire ct
Ġf ollow
Ġd et
ic es
Ġf ind
1 2
Ġm em
Ġc r
e red
e x
Ġex t
ut h
en se
c o
Ġte am
v ing
ou se
as h
at t
v ed
Ġsy stem
ĠA s
d er
iv es
m in
Ġle ad
ĠB l
c ent
Ġa round
Ġgo vern
Ġc ur
vel op
an y
Ġc our
al th
ag es
iz e
Ġc ar
od e
Ġl aw
Ġre ad
' m
c on
Ġre al
Ġsupp ort
Ġ1 2
.. ..
Ġre ally
n ess
Ġf act
Ġd ay
Ġb oth
y ing
Ġs erv
ĠF or
Ġth ree
Ġw om
Ġm ed
od y
ĠThe y
5 0
Ġex per
t on
Ġe ach
ak es
Ġc he
Ġc re
in es
Ġre p
1 9
g g
ill ion
Ġg rou
ut e
i k
W e
g et
E R
Ġm et
Ġs ays
o x
Ġd uring
er n
iz ed
a red
Ġf am
ic ally
Ġha pp
ĠI s
Ġch ar
m ed
v ent
Ġg ener
i ent
p le
i et
re nt
1 1
v es
pt ion
Ġ2 0
form ation
Ġc or
Ġoff ic
ie ld
Ġto o
is ion
Ġin f
Ġ Z
t he
o ad
Ġp ublic
Ġpro g
r ic
* *
Ġw ar
Ġp ower
v iew
Ġf ew
Ġl oc
Ġdiffere nt
Ġst ate
Ġhe ad
' ll
Ġp oss
Ġst at
re t
ant s
Ġv al
Ġis s
Ġc le
i vers
an c
Ġex pl
Ġan other
Ġ Q
Ġa v
th ing
n ce
W h
Ġch ild
Ġs ince
i red
l ess
Ġl ife
Ġde velop
itt le
Ġde p
Ġp ass
ã ĥ
Ġt urn
or n
Th is
b ers
ro ss
ĠA d
Ġf r
Ġres p
Ġsec ond
o h
Ġ /
Ġdis c
Ġ &
Ġsomet hing
Ġcomp le
Ġ ed
Ġf il
Ġmon th
a j
u c
Ġgovern ment
Ġwith out
Ġle g
Ġd ist
Ġp ut
Ġqu est
an n
Ġpro t
2 0
Ġne ver
i ence
Ġle vel
Ġar t
Ġth ings
Ġm ight
Ġeff ect
Ġcont ro
Ġc ent
Ġ1 8
Ġall ow
Ġbel ie
ch ool
ot t
Ġinc re
Ġfe el
Ġres ult
Ġl ot
Ġf un
ot e
Ġt y
ere st
Ġcont in
Ġus ing
Ġb ig
2 01
Ġas k
Ġb est
Ġ )
I N
Ġo pp
3 0
Ġnum ber
in ess
S t
le ase
Ġc a
Ġm ust
Ġd irect
Ġg l
Ġ <
Ġop en
Ġp ost
Ġcom e
Ġse em
ord ing
Ġwe ek
ate ly
it al
Ġe l
ri end
Ġf ar
Ġt ra
in al
Ġp ri
ĠU S
Ġpl ace
Ġfor m
Ġto ld
" :
ain s
at ure
ĠTr ump
Ġst and
Ġ #
id er
ĠF r
Ġne xt
Ġs oc
Ġp ur
Ġle t
Ġl ittle
Ġh um
Ġ i
r on
1 5
Ġ1 5
Ġcomm un
Ġm ark
ĠThe re
Ġw r
ĠTh at
Ġin formation
w ays
Ġb us
a pp
Ġinv est
m e
Ġh ard
ain ed
e ad
Ġim port
Ġapp ro
Ġt est
Ġt ri
Ġre st
os ed
Ġf ull
Ġc are
ĠS p
Ġc ase
O N
Ġs k
Ġl ess
Ġ +
Ġpart ic
ĠP l
ab ly
u ck
is hed
ch n
b e
Ġl ist
at or
Ġto p
Ġad v
ĠB e
ru ct
Ġd em
r ation
l ing
g y
re en
g er
Ġh ome
Ġle ft
Ġbet ter
Ġd ata
Ġ1 1
Ġatt ack
Ġpro ble
l ine
ard s
Ġbe h
r al
ĠH ow
ĠS he
ar ge
Ġ --
: //
Ġb ro
ĠP h
at s
Ġbu ild
w w
id ed
a im
as es
en cy
Ġm ain
in ed
Ġinclud ing
Ġ {
Ġg ot
Ġint erest
Ġke ep
Ġ X
Ġe as
ain ing
Ġcl ass
âĢ ¦
ĠN o
Ġv ar
Ġsm all
amp le
A T
Ġ ide
ĠS o
Ġre ce
Ġpol it
Ġm ov
Ġpl an
Ġper cent
iv ing
Ġc amp
Ġp ay
1 4
s c
is ed
Ġu nt
one y
pl oy
== ==
Ġdid n
ĠI nd
el s
ert ain
Ġp os
__ __
i ver
Ġpro cess
Ġprog ram
if ied
ĠR ep
1 6
u ro
olog y
at ter
in a
Ġn ame
ĠA ll
Ġf our
Ġret urn
v ious
b s
Ġcall ed
Ġm ove
ĠS c
ir d
Ġgrou p
Ġb re
Ġm en
Ġc ap
t en
e e
Ġd ri
le g
he re
uth or
Ġp at
Ġcur rent
id es
Ġp op
t o
ent ion
Ġal ways
Ġm il
Ġwom en
Ġ1 6
Ġo ld
iv en
ra ph
ĠO r
r or
ent ly
Ġn ear
ĠE x
re am
s h
Ġ1 4
Ġf ree
iss ion
st and
ĠC on
al ity
us ed
1 3
Ġdes ign
Ġch ange
Ġch ang
Ġb o
Ġv is
em ber
Ġb ook
read y
Ġk ill
2 5
pp ed
Ġa way
Ġab le
Ġcount ry
Ġcon st
ar n
Ġor der
A R
i or
i um
or th
1 8
ail able
Ġs w
Ġm illion
Ġ1 3
at ic
t ed
ĠG o
Ġo per
en g
Ġth ing
aj or
con om
ĠCom m
Ġwh y
u red
ur al
Ġs chool
b y
ĠM ar
Ġa ff
Ġd ays
Ġan n
us h
an e
I f
e g
Ġpro f
Ġhe alth
ou th
B ut
ion al
. ,
Ġs ol
Ġal ready
Ġ3 0
Ġchar act
H e
Ġf riend
E S
i ans
ic le
' d
ĠO n
Ġle ast
Ġp rom
Ġd r
Ġh ist
it her
Ġ est
i qu
1 7
s on
Ġte ll
Ġt alk
ohas e
� a
